TRT-8603-EntropyCalibration2
data: 3c9cdc9b
resnetv17_conv0_fwd: 3dbb597a
resnetv17_batchnorm0_fwd: 3cb176dd
resnetv17_relu0_fwd: 3cc0bddb
resnetv17_pool0_fwd: 3cc0bddb
resnetv17_stage1_conv0_fwd: 3ce06bcd
resnetv17_stage1_batchnorm0_fwd: 3cab85ff
resnetv17_stage1_relu0_fwd: 3c14885d
resnetv17_stage1_conv1_fwd: 3c254e0b
resnetv17_stage1_batchnorm1_fwd: 3c340524
resnetv17_stage1_relu1_fwd: 3c244c76
resnetv17_stage1_conv2_fwd: 3b84fd2a
resnetv17_stage1_batchnorm2_fwd: 3bb92990
resnetv17_stage1_conv3_fwd: 3ca9c59e
resnetv17_stage1_batchnorm3_fwd: 3c2d9014
resnetv17_stage1__plus0: 3c16cb0b
resnetv17_stage1_activation0: 3c5b965e
resnetv17_stage1_conv4_fwd: 3c0d38a7
resnetv17_stage1_batchnorm4_fwd: 3c174c88
resnetv17_stage1_relu2_fwd: 3c2d0373
resnetv17_stage1_conv5_fwd: 3ba59061
resnetv17_stage1_batchnorm5_fwd: 3c14663b
resnetv17_stage1_relu3_fwd: 3bf1a2bc
resnetv17_stage1_conv6_fwd: 3b40f408
resnetv17_stage1_batchnorm6_fwd: 3baa8162
resnetv17_stage1__plus1: 3c5b2298
resnetv17_stage1_activation1: 3c762a16
resnetv17_stage1_conv7_fwd: 3c169875
resnetv17_stage1_batchnorm7_fwd: 3becfae6
resnetv17_stage1_relu4_fwd: 3c128ba4
resnetv17_stage1_conv8_fwd: 3bf91f17
resnetv17_stage1_batchnorm8_fwd: 3c3243f6
resnetv17_stage1_relu5_fwd: 3c3243f6
resnetv17_stage1_conv9_fwd: 3b490472
resnetv17_stage1_batchnorm9_fwd: 3bf4e835
resnetv17_stage1__plus2: 3c71ce08
resnetv17_stage1_activation2: 3c71ce08
resnetv17_stage2_conv0_fwd: 3c0d65c3
resnetv17_stage2_batchnorm0_fwd: 3bcf9ab2
resnetv17_stage2_relu0_fwd: 3bbedec9
resnetv17_stage2_conv1_fwd: 3c2643f4
resnetv17_stage2_batchnorm1_fwd: 3c24892d
resnetv17_stage2_relu1_fwd: 3bf0e7e6
resnetv17_stage2_conv2_fwd: 3b644241
resnetv17_stage2_batchnorm2_fwd: 3c11bebb
resnetv17_stage2_conv3_fwd: 3c0b1e72
resnetv17_stage2_batchnorm3_fwd: 3c25d174
resnetv17_stage2__plus0: 3c42286e
resnetv17_stage2_activation0: 3c42286e
resnetv17_stage2_conv4_fwd: 3bf16437
resnetv17_stage2_batchnorm4_fwd: 3c0cb811
resnetv17_stage2_relu2_fwd: 3bc75704
resnetv17_stage2_conv5_fwd: 3c1c1eb7
resnetv17_stage2_batchnorm5_fwd: 3c3e50bb
resnetv17_stage2_relu3_fwd: 3c034a30
resnetv17_stage2_conv6_fwd: 3b8d0f74
resnetv17_stage2_batchnorm6_fwd: 3c3e674c
resnetv17_stage2__plus1: 3c890e5b
resnetv17_stage2_activation1: 3c4adfdf
resnetv17_stage2_conv7_fwd: 3c01b0ec
resnetv17_stage2_batchnorm7_fwd: 3c24c424
resnetv17_stage2_relu4_fwd: 3c0cf326
resnetv17_stage2_conv8_fwd: 3bc237f7
resnetv17_stage2_batchnorm8_fwd: 3c16574d
resnetv17_stage2_relu5_fwd: 3c02019c
resnetv17_stage2_conv9_fwd: 3b2cf59b
resnetv17_stage2_batchnorm9_fwd: 3c09756c
resnetv17_stage2__plus2: 3c33aea5
resnetv17_stage2_activation2: 3c3ed144
resnetv17_stage2_conv10_fwd: 3c2767b3
resnetv17_stage2_batchnorm10_fwd: 3c5c4794
resnetv17_stage2_relu6_fwd: 3c894ab9
resnetv17_stage2_conv11_fwd: 3c373489
resnetv17_stage2_batchnorm11_fwd: 3c6d705e
resnetv17_stage2_relu7_fwd: 3c6e08a9
resnetv17_stage2_conv12_fwd: 3ba62517
resnetv17_stage2_batchnorm12_fwd: 3bf2fc05
resnetv17_stage2__plus3: 3c8a9006
resnetv17_stage2_activation3: 3c8a9006
resnetv17_stage3_conv0_fwd: 3bd72e7c
resnetv17_stage3_batchnorm0_fwd: 3c0989b6
resnetv17_stage3_relu0_fwd: 3be2b6b5
resnetv17_stage3_conv1_fwd: 3be75072
resnetv17_stage3_batchnorm1_fwd: 3c1d5e0d
resnetv17_stage3_relu1_fwd: 3ba0b9f6
resnetv17_stage3_conv2_fwd: 3b0ec0f0
resnetv17_stage3_batchnorm2_fwd: 3bcddbbf
resnetv17_stage3_conv3_fwd: 3c02aa49
resnetv17_stage3_batchnorm3_fwd: 3c1b83e4
resnetv17_stage3__plus0: 3c22185c
resnetv17_stage3_activation0: 3c53b611
resnetv17_stage3_conv4_fwd: 3bbe255c
resnetv17_stage3_batchnorm4_fwd: 3bef2ead
resnetv17_stage3_relu2_fwd: 3bd5054d
resnetv17_stage3_conv5_fwd: 3bb2cfb4
resnetv17_stage3_batchnorm5_fwd: 3be54951
resnetv17_stage3_relu3_fwd: 3ba8c56e
resnetv17_stage3_conv6_fwd: 3ae24e8d
resnetv17_stage3_batchnorm6_fwd: 3bcc95db
resnetv17_stage3__plus1: 3c1f7612
resnetv17_stage3_activation1: 3c1f7612
resnetv17_stage3_conv7_fwd: 3bd6313e
resnetv17_stage3_batchnorm7_fwd: 3bf62c50
resnetv17_stage3_relu4_fwd: 3bea6337
resnetv17_stage3_conv8_fwd: 3b89aa3c
resnetv17_stage3_batchnorm8_fwd: 3bf426d5
resnetv17_stage3_relu5_fwd: 3bcaf6af
resnetv17_stage3_conv9_fwd: 3ae095d7
resnetv17_stage3_batchnorm9_fwd: 3bc643fa
resnetv17_stage3__plus2: 3c290c30
resnetv17_stage3_activation2: 3c50072b
resnetv17_stage3_conv10_fwd: 3bd10f81
resnetv17_stage3_batchnorm10_fwd: 3bd7841c
resnetv17_stage3_relu6_fwd: 3bd9e9dd
resnetv17_stage3_conv11_fwd: 3b96390b
resnetv17_stage3_batchnorm11_fwd: 3c318632
resnetv17_stage3_relu7_fwd: 3c0c418a
resnetv17_stage3_conv12_fwd: 3b094541
resnetv17_stage3_batchnorm12_fwd: 3bf2af1f
resnetv17_stage3__plus3: 3c2ad2f8
resnetv17_stage3_activation3: 3c75739a
resnetv17_stage3_conv13_fwd: 3bba5bba
resnetv17_stage3_batchnorm13_fwd: 3c36e1b4
resnetv17_stage3_relu8_fwd: 3c4c33c6
resnetv17_stage3_conv14_fwd: 3c165560
resnetv17_stage3_batchnorm14_fwd: 3c61285c
resnetv17_stage3_relu9_fwd: 3c4e3724
resnetv17_stage3_conv15_fwd: 3b31ea3f
resnetv17_stage3_batchnorm15_fwd: 3c2cab7c
resnetv17_stage3__plus4: 3c57db2b
resnetv17_stage3_activation4: 3c478b1a
resnetv17_stage3_conv16_fwd: 3bd11a52
resnetv17_stage3_batchnorm16_fwd: 3c4798b7
resnetv17_stage3_relu10_fwd: 3c16eced
resnetv17_stage3_conv17_fwd: 3bda0b3c
resnetv17_stage3_batchnorm17_fwd: 3c137dbb
resnetv17_stage3_relu11_fwd: 3c09c259
resnetv17_stage3_conv18_fwd: 3b887fa7
resnetv17_stage3_batchnorm18_fwd: 3c231fd8
resnetv17_stage3__plus5: 3c76ef8f
resnetv17_stage3_activation5: 3c98df35
resnetv17_stage4_conv0_fwd: 3c017a35
resnetv17_stage4_batchnorm0_fwd: 3c1ba798
resnetv17_stage4_relu0_fwd: 3c06a842
resnetv17_stage4_conv1_fwd: 3bf9022b
resnetv17_stage4_batchnorm1_fwd: 3c45b51d
resnetv17_stage4_relu1_fwd: 3bd3133b
resnetv17_stage4_conv2_fwd: 3b0e9c46
resnetv17_stage4_batchnorm2_fwd: 3c221df1
resnetv17_stage4_conv3_fwd: 3bb5014e
resnetv17_stage4_batchnorm3_fwd: 3c3829b9
resnetv17_stage4__plus0: 3c6af503
resnetv17_stage4_activation0: 3c4cecf4
resnetv17_stage4_conv4_fwd: 3bdd2eb2
resnetv17_stage4_batchnorm4_fwd: 3c523e27
resnetv17_stage4_relu2_fwd: 3c435233
resnetv17_stage4_conv5_fwd: 3c177f3f
resnetv17_stage4_batchnorm5_fwd: 3c4cddd6
resnetv17_stage4_relu3_fwd: 3c1d2e08
resnetv17_stage4_conv6_fwd: 3b3897d0
resnetv17_stage4_batchnorm6_fwd: 3ca789a8
resnetv17_stage4__plus1: 3cbca3b0
resnetv17_stage4_activation1: 3ce17fd0
resnetv17_stage4_conv7_fwd: 3cb46214
resnetv17_stage4_batchnorm7_fwd: 3c3250b6
resnetv17_stage4_relu4_fwd: 3c44e623
resnetv17_stage4_conv8_fwd: 3c1b73fb
resnetv17_stage4_batchnorm8_fwd: 3c8e571b
resnetv17_stage4_relu5_fwd: 3bbbdc87
resnetv17_stage4_conv9_fwd: 3acb4333
resnetv17_stage4_batchnorm9_fwd: 3d332b49
resnetv17_stage4__plus2: 3d51a5bb
resnetv17_stage4_activation2: 3d71b317
resnetv17_pool1_fwd: 3c837403
flatten_473: 3c837403
(Unnamed Layer* 179) [Constant]_output: 3b309dc4
(Unnamed Layer* 180) [Matrix Multiply]_output: 3d747ada
(Unnamed Layer* 181) [Constant]_output: 39a4553f
(Unnamed Layer* 182) [Shuffle]_output: 39a4553f
resnetv17_dense0_fwd: 3d84a22d
